TRT-8601-EntropyCalibration2
data: 3c010a14
545: 3c724c80
345: 3c84d97b
548: 3c00c3e3
348: 3c3e71bd
551: 3c2c67ed
351: 3c089982
352: 3c089982
554: 3bd22f19
557: 3bd741a2
357: 3bd795fa
560: 3bfa565e
360: 3c474283
361: 3c402892
563: 3c28a591
364: 3c029e36
566: 3c808107
367: 3caed107
368: 3c9f90a6
369: 3c888b3f
569: 3c64fabd
372: 3c64fabd
373: 3c64fabd
374: 3c64fabd
572: 3bb90005
575: 3c4e84a8
379: 3c4f6069
578: 3c45973e
382: 3c9955bf
383: 3c70d9a1
581: 3c0b6487
386: 3c1f91ba
584: 3c40f497
389: 3c6e2520
390: 3c9313c3
391: 3c9349a9
587: 3c2fde94
394: 3c4f0771
590: 3c46e636
397: 3c221bd1
593: 3c6d86f6
400: 3c69eb82
401: 3c481a8e
596: 3c35d07e
404: 3c6e3142
599: 3cadbdd9
407: 3cb86e5e
408: 3cba3da1
409: 3ca56e17
602: 3ca1bf07
412: 3c969457
413: 3c969457
414: 3c969457
605: 3c090784
608: 3c24cf07
419: 3c43eeb3
611: 3c12218e
422: 3c6baedb
423: 3ca886aa
614: 3c18448c
426: 3c8146b2
617: 3c3e852d
429: 3c855e2b
430: 3cb71247
431: 3cb54a08
620: 3c16b5f5
434: 3c58db57
623: 3bc91f52
437: 3c0c92bb
626: 3c0f5788
440: 3c3f4bce
441: 3c75a8ec
629: 3ba3ce3a
444: 3c7cebfc
632: 3c4817ae
447: 3c5d73bf
448: 3c8fd86e
449: 3ca3003e
635: 3c44fee5
452: 3c5050dc
453: 3c5050dc
638: 3bcecb19
641: 3bf90471
458: 3ca353f5
644: 3b5303c3
461: 3c143ca6
462: 3cb02476
647: 3b645d5a
465: 3c9f039c
650: 3c1bf439
468: 3c4def0a
469: 3cd4177b
470: 3cd4177b
653: 3d29f559
473: 3d2ef328
656: 3cad793e
476: 3d3b824f
477: 3d153c54
478: 3d153c54
659: 3d0d949e
481: 3d5b2916
662: 3d24d3fb
484: 3d2144cf
485: 3cab3aad
486: 3caaf63d
665: 3d392edf
489: 3d392edf
668: 3ccf0980
492: 3d42145a
493: 3cb8e548
494: 3cd7736f
671: 3d1bb10a
497: 3d2cf5ec
674: 3d0a30dd
500: 3cf34ac9
501: 3c920baf
502: 3ca0c1e1
677: 3d1b6e71
505: 3d111315
680: 3ce8f9f6
508: 3ce8c69f
509: 3d06d1a7
510: 3d09124f
683: 3d045399
513: 3d0a0118
686: 3d12ddba
516: 3d1c5f78
517: 3d91ce9a
518: 3d91ce9a
689: 3d1825db
521: 3cf9af4c
522: 3d6c7101
523: 3dc14118
524: 3e29681c
heatmap: 3a1520ca
heatmapmax: 3a1520ca
527: 3d4c1e08
528: 3e0dbf85
offset_2d: 3e3eba6c
530: 3e0c60a5
531: 3e50c216
size_2d: 3fc54af5
533: 3d21acda
534: 3d86a8c5
depth: 3d6b4735
536: 3c33e301
537: 3cf51554
offset_3d: 3c0fb141
539: 3d4e5e89
540: 3d883f7f
size_3d: 3d31e1d2
542: 3d972ff8
543: 3d8b8c33
heading: 3dfe17f5
